{
    "DECODER": [
        {
            "BIAS": 1,
            "WEIGHTS": [
                -1034732310,
                -79821513
            ]
        },
        {
            "BIAS": 1,
            "WEIGHTS": [
                1381756115,
                -1522003209
            ]
        },
        {
            "BIAS": 1,
            "WEIGHTS": [
                -1038745860,
                -912475217
            ]
        },
        {
            "BIAS": 1,
            "WEIGHTS": [
                1318432283,
                -1645263189
            ]
        },
        {
            "BIAS": 1,
            "WEIGHTS": [
                -1034732310,
                -79821513
            ]
        },
        {
            "BIAS": 1,
            "WEIGHTS": [
                1381756115,
                -1522003209
            ]
        },
        {
            "BIAS": 1,
            "WEIGHTS": [
                -1038745860,
                -912475217
            ]
        },
        {
            "BIAS": 1,
            "WEIGHTS": [
                1318432283,
                -1645263189
            ]
        },
        {
            "BIAS": 1,
            "WEIGHTS": [
                -1034732310,
                -79821513
            ]
        },
        {
            "BIAS": 1,
            "WEIGHTS": [
                1381756115,
                -1522003209
            ]
        },
        {
            "BIAS": 1,
            "WEIGHTS": [
                -1038745860,
                -912475217
            ]
        },
        {
            "BIAS": 1,
            "WEIGHTS": [
                1318432283,
                -1645263189
            ]
        },
        {
            "BIAS": 1,
            "WEIGHTS": [
                -1034732310,
                -79821513
            ]
        },
        {
            "BIAS": 1,
            "WEIGHTS": [
                1381756115,
                -1522003209
            ]
        },
        {
            "BIAS": 1,
            "WEIGHTS": [
                -1038745860,
                -912475217
            ]
        },
        {
            "BIAS": 1,
            "WEIGHTS": [
                1318432283,
                -1645263189
            ]
        }
    ],
    "ENCODER": [
        {
            "BIAS": 341,
            "WEIGHTS": [
                63119415,
                -1860953127,
                1146220817,
                -62698976,
                -2045032645,
                977250893,
                -820875908,
                -885174628,
                -1813389698,
                -1566850845,
                -1018519090,
                -59686292,
                696136573,
                1773846901,
                34924138,
                -1052424470
            ]
        },
        {
            "BIAS": 1,
            "WEIGHTS": [
                2085120548,
                1294235581,
                -804460127,
                -1043503504,
                -2146568414,
                1020546817,
                815712474,
                1077016178,
                1788558396,
                646281034,
                345631526,
                173104885,
                866307519,
                780986042,
                -50951644,
                1556856787
            ]
        },
        {
            "BIAS": 1,
            "WEIGHTS": [
                849095779,
                932215177,
                1045113396,
                -2116211009,
                -485669004,
                -92608312,
                -1876355924,
                -2124988502,
                1012634633,
                -222106975,
                673084868,
                669198773,
                1484656970,
                1879132618,
                -687476123,
                -579203936
            ]
        }
    ],
    "HIDDEN": [
        {
            "BIAS": 1,
            "WEIGHTS": [
                1699754452,
                -1148835161,
                -1376990472,
                -639733897,
                -628294308
            ]
        },
        {
            "BIAS": 1,
            "WEIGHTS": [
                853200057,
                905984470,
                -588533757,
                369555484,
                -533554235
            ]
        },
        {
            "BIAS": 1,
            "WEIGHTS": [
                -2025814933,
                1006153275,
                839868893,
                1533654251,
                -377986340
            ]
        },
        {
            "BIAS": 1,
            "WEIGHTS": [
                181100543,
                1899086286,
                1758429692,
                -664336638,
                -541206596
            ]
        }
    ]
}